const unsigned char model[] = {28,0,0,0,84,70,76,51,20,0,32,0,28,0,24,0,20,0,16,0,12,0,0,0,8,0,4,0,20,0,0,0,28,0,0,0,152,0,0,0,240,0,0,0,104,3,0,0,120,3,0,0,60,9,0,0,3,0,0,0,1,0,0,0,16,0,0,0,0,0,10,0,16,0,12,0,8,0,4,0,10,0,0,0,12,0,0,0,28,0,0,0,60,0,0,0,15,0,0,0,115,101,114,118,105,110,103,95,100,101,102,97,117,108,116,0,1,0,0,0,4,0,0,0,144,255,255,255,10,0,0,0,4,0,0,0,8,0,0,0,111,117,116,112,117,116,95,48,0,0,0,0,1,0,0,0,4,0,0,0,126,252,255,255,4,0,0,0,12,0,0,0,107,101,114,97,115,95,116,101,110,115,111,114,0,0,0,0,2,0,0,0,52,0,0,0,4,0,0,0,220,255,255,255,13,0,0,0,4,0,0,0,19,0,0,0,67,79,78,86,69,82,83,73,79,78,95,77,69,84,65,68,65,84,65,0,8,0,12,0,8,0,4,0,8,0,0,0,12,0,0,0,4,0,0,0,19,0,0,0,109,105,110,95,114,117,110,116,105,109,101,95,118,101,114,115,105,111,110,0,14,0,0,0,116,2,0,0,108,2,0,0,60,2,0,0,172,1,0,0,148,1,0,0,116,1,0,0,68,1,0,0,180,0,0,0,172,0,0,0,164,0,0,0,156,0,0,0,148,0,0,0,116,0,0,0,4,0,0,0,50,253,255,255,4,0,0,0,96,0,0,0,12,0,0,0,8,0,14,0,8,0,4,0,8,0,0,0,16,0,0,0,40,0,0,0,0,0,6,0,8,0,4,0,6,0,0,0,4,0,0,0,1,0,0,0,234,3,0,0,12,0,24,0,20,0,16,0,12,0,4,0,12,0,0,0,234,19,219,172,126,222,252,153,2,0,0,0,2,0,0,0,4,0,0,0,6,0,0,0,50,46,49,57,46,48,0,0,158,253,255,255,4,0,0,0,16,0,0,0,49,46,53,46,48,0,0,0,0,0,0,0,0,0,0,0,164,248,255,255,168,248,255,255,172,248,255,255,176,248,255,255,202,253,255,255,4,0,0,0,128,0,0,0,151,72,10,191,92,216,185,190,28,76,180,60,16,223,100,62,86,244,185,61,143,179,0,191,236,169,198,62,142,75,80,61,78,93,141,62,44,248,249,62,223,183,163,190,149,148,172,190,149,205,203,190,157,228,61,62,105,63,35,191,48,71,22,63,85,62,160,190,213,61,89,190,101,181,22,62,146,48,50,191,22,232,19,63,170,29,90,61,229,39,41,61,7,39,11,190,122,49,130,62,174,138,133,62,167,107,202,190,11,191,1,63,155,139,216,190,151,4,240,61,124,128,78,188,33,131,2,61,86,254,255,255,4,0,0,0,32,0,0,0,228,24,144,187,103,228,81,61,245,21,134,61,31,142,138,61,179,26,143,61,27,84,125,189,75,253,110,189,242,10,123,61,130,254,255,255,4,0,0,0,16,0,0,0,48,84,131,61,76,110,181,60,205,152,133,189,95,241,69,189,158,254,255,255,4,0,0,0,8,0,0,0,119,42,172,189,119,42,172,61,178,254,255,255,4,0,0,0,128,0,0,0,15,240,9,62,19,251,214,189,230,57,215,189,138,221,131,59,24,84,5,63,104,1,18,190,213,153,189,190,96,253,228,62,85,48,12,63,37,63,13,191,236,230,137,190,149,144,12,191,210,238,22,191,149,77,115,62,196,67,117,62,188,225,27,63,252,101,21,63,130,68,152,62,198,162,33,191,252,84,32,63,186,154,2,63,162,175,14,63,175,181,171,62,253,212,241,61,94,65,17,63,11,238,223,190,117,66,34,191,169,240,93,190,19,86,250,188,144,158,106,189,234,205,210,190,243,96,23,191,62,255,255,255,4,0,0,0,32,0,0,0,16,226,244,62,167,18,181,190,34,137,74,61,114,126,223,189,146,169,10,191,73,1,138,190,137,225,58,191,239,69,89,63,84,250,255,255,88,250,255,255,15,0,0,0,77,76,73,82,32,67,111,110,118,101,114,116,101,100,46,0,1,0,0,0,20,0,0,0,0,0,14,0,24,0,20,0,16,0,12,0,8,0,4,0,14,0,0,0,20,0,0,0,28,0,0,0,52,1,0,0,56,1,0,0,60,1,0,0,4,0,0,0,109,97,105,110,0,0,0,0,4,0,0,0,220,0,0,0,148,0,0,0,80,0,0,0,20,0,0,0,0,0,14,0,26,0,20,0,16,0,12,0,11,0,4,0,14,0,0,0,28,0,0,0,0,0,0,9,28,0,0,0,32,0,0,0,1,0,0,0,0,0,6,0,8,0,4,0,6,0,0,0,0,0,128,63,1,0,0,0,10,0,0,0,1,0,0,0,9,0,0,0,206,255,255,255,16,0,0,0,0,0,0,8,12,0,0,0,16,0,0,0,28,251,255,255,1,0,0,0,9,0,0,0,3,0,0,0,8,0,0,0,1,0,0,0,3,0,0,0,0,0,14,0,20,0,0,0,16,0,12,0,11,0,4,0,14,0,0,0,16,0,0,0,0,0,0,8,16,0,0,0,20,0,0,0,186,255,255,255,0,0,0,1,1,0,0,0,8,0,0,0,3,0,0,0,7,0,0,0,2,0,0,0,4,0,0,0,0,0,14,0,22,0,0,0,16,0,12,0,11,0,4,0,14,0,0,0,24,0,0,0,0,0,0,8,24,0,0,0,28,0,0,0,0,0,6,0,8,0,7,0,6,0,0,0,0,0,0,1,1,0,0,0,7,0,0,0,3,0,0,0,0,0,0,0,6,0,0,0,5,0,0,0,1,0,0,0,10,0,0,0,1,0,0,0,0,0,0,0,11,0,0,0,252,3,0,0,164,3,0,0,76,3,0,0,16,3,0,0,180,2,0,0,92,2,0,0,16,2,0,0,124,1,0,0,224,0,0,0,96,0,0,0,4,0,0,0,70,252,255,255,0,0,0,1,20,0,0,0,28,0,0,0,28,0,0,0,11,0,0,0,52,0,0,0,2,0,0,0,255,255,255,255,2,0,0,0,48,252,255,255,27,0,0,0,83,116,97,116,101,102,117,108,80,97,114,116,105,116,105,111,110,101,100,67,97,108,108,95,49,58,48,0,2,0,0,0,1,0,0,0,2,0,0,0,158,252,255,255,0,0,0,1,20,0,0,0,28,0,0,0,28,0,0,0,10,0,0,0,88,0,0,0,2,0,0,0,255,255,255,255,2,0,0,0,136,252,255,255,60,0,0,0,115,101,113,117,101,110,116,105,97,108,95,49,47,100,101,110,115,101,95,50,95,49,47,77,97,116,77,117,108,59,115,101,113,117,101,110,116,105,97,108,95,49,47,100,101,110,115,101,95,50,95,49,47,66,105,97,115,65,100,100,0,0,0,0,2,0,0,0,1,0,0,0,2,0,0,0,26,253,255,255,0,0,0,1,20,0,0,0,28,0,0,0,28,0,0,0,9,0,0,0,116,0,0,0,2,0,0,0,255,255,255,255,4,0,0,0,4,253,255,255,88,0,0,0,115,101,113,117,101,110,116,105,97,108,95,49,47,100,101,110,115,101,95,49,95,50,47,77,97,116,77,117,108,59,115,101,113,117,101,110,116,105,97,108,95,49,47,100,101,110,115,101,95,49,95,50,47,82,101,108,117,59,115,101,113,117,101,110,116,105,97,108,95,49,47,100,101,110,115,101,95,49,95,50,47,66,105,97,115,65,100,100,0,0,0,0,2,0,0,0,1,0,0,0,4,0,0,0,178,253,255,255,0,0,0,1,20,0,0,0,28,0,0,0,28,0,0,0,8,0,0,0,108,0,0,0,2,0,0,0,255,255,255,255,8,0,0,0,156,253,255,255,82,0,0,0,115,101,113,117,101,110,116,105,97,108,95,49,47,100,101,110,115,101,95,49,47,77,97,116,77,117,108,59,115,101,113,117,101,110,116,105,97,108,95,49,47,100,101,110,115,101,95,49,47,82,101,108,117,59,115,101,113,117,101,110,116,105,97,108,95,49,47,100,101,110,115,101,95,49,47,66,105,97,115,65,100,100,0,0,2,0,0,0,1,0,0,0,8,0,0,0,150,254,255,255,0,0,0,1,16,0,0,0,16,0,0,0,7,0,0,0,40,0,0,0,28,254,255,255,27,0,0,0,115,101,113,117,101,110,116,105,97,108,95,49,47,100,101,110,115,101,95,49,47,77,97,116,77,117,108,0,2,0,0,0,8,0,0,0,4,0,0,0,222,254,255,255,0,0,0,1,16,0,0,0,16,0,0,0,6,0,0,0,56,0,0,0,100,254,255,255,43,0,0,0,115,101,113,117,101,110,116,105,97,108,95,49,47,100,101,110,115,101,95,49,47,66,105,97,115,65,100,100,47,82,101,97,100,86,97,114,105,97,98,108,101,79,112,0,1,0,0,0,8,0,0,0,50,255,255,255,0,0,0,1,16,0,0,0,16,0,0,0,5,0,0,0,60,0,0,0,184,254,255,255,45,0,0,0,115,101,113,117,101,110,116,105,97,108,95,49,47,100,101,110,115,101,95,49,95,50,47,66,105,97,115,65,100,100,47,82,101,97,100,86,97,114,105,97,98,108,101,79,112,0,0,0,1,0,0,0,4,0,0,0,138,255,255,255,0,0,0,1,16,0,0,0,16,0,0,0,4,0,0,0,28,0,0,0,16,255,255,255,15,0,0,0,97,114,105,116,104,46,99,111,110,115,116,97,110,116,50,0,1,0,0,0,2,0,0,0,194,255,255,255,0,0,0,1,16,0,0,0,16,0,0,0,3,0,0,0,28,0,0,0,72,255,255,255,15,0,0,0,97,114,105,116,104,46,99,111,110,115,116,97,110,116,49,0,2,0,0,0,4,0,0,0,8,0,0,0,0,0,22,0,24,0,20,0,0,0,16,0,12,0,8,0,0,0,0,0,0,0,7,0,22,0,0,0,0,0,0,1,16,0,0,0,16,0,0,0,2,0,0,0,28,0,0,0,156,255,255,255,14,0,0,0,97,114,105,116,104,46,99,111,110,115,116,97,110,116,0,0,2,0,0,0,2,0,0,0,4,0,0,0,0,0,22,0,28,0,24,0,0,0,20,0,16,0,12,0,0,0,0,0,8,0,7,0,22,0,0,0,0,0,0,1,20,0,0,0,32,0,0,0,32,0,0,0,1,0,0,0,60,0,0,0,2,0,0,0,255,255,255,255,4,0,0,0,4,0,4,0,4,0,0,0,30,0,0,0,115,101,114,118,105,110,103,95,100,101,102,97,117,108,116,95,107,101,114,97,115,95,116,101,110,115,111,114,58,48,0,0,2,0,0,0,1,0,0,0,4,0,0,0,2,0,0,0,32,0,0,0,4,0,0,0,244,255,255,255,25,0,0,0,0,0,0,25,12,0,12,0,11,0,0,0,0,0,4,0,12,0,0,0,9,0,0,0,0,0,0,9};